const unsigned char trained_tflite[] = {
  0x1c, 0x00, 0x00, 0x00, 0x54, 0x46, 0x4c, 0x33, 0x00, 0x00, 0x12, 0x00,
  0x1c, 0x00, 0x04, 0x00, 0x08, 0x00, 0x0c, 0x00, 0x10, 0x00, 0x14, 0x00,
  0x00, 0x00, 0x18, 0x00, 0x12, 0x00, 0x00, 0x00, 0x03, 0x00, 0x00, 0x00,
  0xd8, 0x1c, 0x00, 0x00, 0x04, 0x0d, 0x00, 0x00, 0xec, 0x0c, 0x00, 0x00,
  0x3c, 0x00, 0x00, 0x00, 0x04, 0x00, 0x00, 0x00, 0x01, 0x00, 0x00, 0x00,
  0x0c, 0x00, 0x00, 0x00, 0x08, 0x00, 0x0c, 0x00, 0x04, 0x00, 0x08, 0x00,
  0x08, 0x00, 0x00, 0x00, 0x08, 0x00, 0x00, 0x00, 0x14, 0x00, 0x00, 0x00,
  0x13, 0x00, 0x00, 0x00, 0x6d, 0x69, 0x6e, 0x5f, 0x72, 0x75, 0x6e, 0x74,
  0x69, 0x6d, 0x65, 0x5f, 0x76, 0x65, 0x72, 0x73, 0x69, 0x6f, 0x6e, 0x00,
  0x15, 0x00, 0x00, 0x00, 0x9c, 0x0c, 0x00, 0x00, 0x88, 0x0c, 0x00, 0x00,
  0x4c, 0x0c, 0x00, 0x00, 0x28, 0x0c, 0x00, 0x00, 0x04, 0x0c, 0x00, 0x00,
  0x90, 0x09, 0x00, 0x00, 0xfc, 0x08, 0x00, 0x00, 0x48, 0x01, 0x00, 0x00,
  0x24, 0x01, 0x00, 0x00, 0x00, 0x01, 0x00, 0x00, 0xdc, 0x00, 0x00, 0x00,
  0xd0, 0x00, 0x00, 0x00, 0xbc, 0x00, 0x00, 0x00, 0xa8, 0x00, 0x00, 0x00,
  0x94, 0x00, 0x00, 0x00, 0x80, 0x00, 0x00, 0x00, 0x6c, 0x00, 0x00, 0x00,
  0x58, 0x00, 0x00, 0x00, 0x44, 0x00, 0x00, 0x00, 0x30, 0x00, 0x00, 0x00,
  0x04, 0x00, 0x00, 0x00, 0xf2, 0xf2, 0xff, 0xff, 0x04, 0x00, 0x00, 0x00,
  0x10, 0x00, 0x00, 0x00, 0x31, 0x2e, 0x35, 0x2e, 0x30, 0x00, 0x00, 0x00,
  0x00, 0x00, 0x00, 0x00, 0x00, 0x00, 0x00, 0x00, 0x00, 0x00, 0x00, 0x00,
  0x00, 0x00, 0x00, 0x00, 0x00, 0x00, 0x00, 0x00, 0x3c, 0xe5, 0xff, 0xff,
  0x00, 0x00, 0x00, 0x00, 0x00, 0x00, 0x00, 0x00, 0x00, 0x00, 0x00, 0x00,
  0x4c, 0xe5, 0xff, 0xff, 0x00, 0x00, 0x00, 0x00, 0x00, 0x00, 0x00, 0x00,
  0x00, 0x00, 0x00, 0x00, 0x5c, 0xe5, 0xff, 0xff, 0x00, 0x00, 0x00, 0x00,
  0x00, 0x00, 0x00, 0x00, 0x00, 0x00, 0x00, 0x00, 0x6c, 0xe5, 0xff, 0xff,
  0x00, 0x00, 0x00, 0x00, 0x00, 0x00, 0x00, 0x00, 0x00, 0x00, 0x00, 0x00,
  0x7c, 0xe5, 0xff, 0xff, 0x00, 0x00, 0x00, 0x00, 0x00, 0x00, 0x00, 0x00,
  0x00, 0x00, 0x00, 0x00, 0x8c, 0xe5, 0xff, 0xff, 0x00, 0x00, 0x00, 0x00,
  0x00, 0x00, 0x00, 0x00, 0x00, 0x00, 0x00, 0x00, 0x9c, 0xe5, 0xff, 0xff,
  0x00, 0x00, 0x00, 0x00, 0x00, 0x00, 0x00, 0x00, 0x00, 0x00, 0x00, 0x00,
  0xac, 0xe5, 0xff, 0xff, 0x00, 0x00, 0x00, 0x00, 0x00, 0x00, 0x00, 0x00,
  0x00, 0x00, 0x00, 0x00, 0xbc, 0xe5, 0xff, 0xff, 0x00, 0x00, 0x00, 0x00,
  0xa2, 0xf3, 0xff, 0xff, 0x04, 0x00, 0x00, 0x00, 0x10, 0x00, 0x00, 0x00,
  0x01, 0x00, 0x00, 0x00, 0x31, 0x00, 0x00, 0x00, 0x01, 0x00, 0x00, 0x00,
  0x1e, 0x00, 0x00, 0x00, 0x00, 0x00, 0x00, 0x00, 0xc2, 0xf3, 0xff, 0xff,
  0x04, 0x00, 0x00, 0x00, 0x0c, 0x00, 0x00, 0x00, 0x01, 0x00, 0x00, 0x00,
  0x31, 0x00, 0x00, 0x00, 0x1e, 0x00, 0x00, 0x00, 0x00, 0x00, 0x00, 0x00,
  0x00, 0x00, 0x00, 0x00, 0xe2, 0xf3, 0xff, 0xff, 0x04, 0x00, 0x00, 0x00,
  0x10, 0x00, 0x00, 0x00, 0x01, 0x00, 0x00, 0x00, 0x01, 0x00, 0x00, 0x00,
  0x31, 0x00, 0x00, 0x00, 0x0d, 0x00, 0x00, 0x00, 0x00, 0x00, 0x00, 0x00,
  0x02, 0xf4, 0xff, 0xff, 0x04, 0x00, 0x00, 0x00, 0x9e, 0x07, 0x00, 0x00,
  0x98, 0x85, 0xe1, 0x4b, 0xfb, 0xda, 0x27, 0x34, 0xb9, 0xee, 0x22, 0xd8,
  0x28, 0x97, 0x10, 0x0c, 0xa2, 0x0c, 0x0c, 0x20, 0xd0, 0x25, 0xfc, 0x02,
  0x23, 0xeb, 0xe1, 0xf4, 0x3c, 0x39, 0xdf, 0x14, 0xda, 0xaa, 0x5f, 0xdb,
  0x17, 0x39, 0xca, 0xc8, 0x21, 0x46, 0xc2, 0x8a, 0x4a, 0xef, 0x84, 0x48,
  0x08, 0x99, 0x72, 0xe6, 0x52, 0x64, 0x57, 0xcf, 0xd5, 0x7f, 0xfc, 0xc0,
  0x73, 0x0c, 0x04, 0x01, 0x36, 0xe8, 0x32, 0xd5, 0xf9, 0x19, 0x3b, 0x26,
  0x23, 0xcc, 0xce, 0x0f, 0x0f, 0x38, 0x4f, 0xea, 0xdb, 0x42, 0x99, 0x31,
  0xf6, 0x12, 0x30, 0xd6, 0x2a, 0x07, 0x27, 0x17, 0xd6, 0x08, 0x09, 0xa8,
  0xae, 0xc2, 0xed, 0x77, 0x3e, 0x20, 0x92, 0x2c, 0xbc, 0x26, 0xc2, 0x3a,
  0xa0, 0x47, 0xd4, 0xf2, 0xf6, 0x0a, 0x51, 0xd1, 0xde, 0x65, 0xc0, 0xc0,
  0x56, 0xcb, 0xd2, 0x7c, 0xa9, 0x7f, 0x28, 0xb8, 0xcf, 0xda, 0x0f, 0x33,
  0x47, 0x63, 0xd0, 0x00, 0x0f, 0x0f, 0x87, 0x67, 0x8a, 0xe9, 0x7f, 0xde,
  0x2b, 0x5d, 0xd6, 0x2f, 0x01, 0x51, 0xb6, 0xe9, 0x2a, 0x9a, 0x38, 0x17,
  0xcc, 0xcb, 0xc4, 0x1b, 0x19, 0x00, 0x3d, 0x2c, 0x03, 0xdd, 0x4c, 0x00,
  0x07, 0x3a, 0x04, 0xe6, 0x26, 0x1b, 0xe1, 0x35, 0x4e, 0xc4, 0xa9, 0x22,
  0x0b, 0xe5, 0xd5, 0x14, 0xed, 0x4b, 0x62, 0xfe, 0x11, 0xe6, 0xd7, 0xf6,
  0xc9, 0xea, 0x19, 0x84, 0x27, 0x13, 0x15, 0xe5, 0xf2, 0x29, 0x57, 0x08,
  0xe7, 0xc9, 0xf8, 0x24, 0x59, 0xac, 0x42, 0xe9, 0x40, 0xc2, 0x4f, 0xf1,
  0x7f, 0xd5, 0x01, 0x00, 0x95, 0x40, 0xfb, 0xd4, 0x11, 0xca, 0xd1, 0x1f,
  0x6b, 0xcf, 0x0c, 0x8b, 0x4a, 0xf8, 0x9c, 0x01, 0xf1, 0x30, 0x09, 0x33,
  0x26, 0x25, 0x38, 0xd8, 0x2b, 0xd2, 0x44, 0xb4, 0x42, 0xd9, 0x06, 0x1f,
  0x7a, 0xca, 0xb3, 0xca, 0x26, 0x6f, 0x57, 0xc4, 0x29, 0x9c, 0x24, 0x02,
  0xeb, 0x31, 0x06, 0xbf, 0x17, 0x0b, 0xdd, 0xcf, 0x07, 0xe1, 0xf8, 0xe1,
  0x34, 0xef, 0x0f, 0xfd, 0x0d, 0xc5, 0x43, 0x5d, 0x35, 0xd4, 0x9b, 0x0e,
  0xdb, 0xe3, 0xf4, 0x5f, 0x0c, 0xee, 0x81, 0x36, 0x21, 0xe6, 0xae, 0x38,
  0xb2, 0x38, 0xc3, 0xfb, 0x08, 0x3a, 0xdf, 0x26, 0xec, 0x14, 0x22, 0x3c,
  0x10, 0xb7, 0x37, 0xe3, 0x1e, 0xed, 0xc9, 0xf7, 0xde, 0x48, 0x04, 0x21,
  0xca, 0x15, 0x50, 0xf5, 0xfd, 0x09, 0xdd, 0xbf, 0xe8, 0x37, 0xde, 0xed,
  0xfe, 0x20, 0x26, 0xbd, 0xea, 0xe1, 0xf2, 0xdc, 0x0e, 0x2f, 0xba, 0x47,
  0xfc, 0xf0, 0x33, 0xc7, 0x43, 0x41, 0x0f, 0x30, 0xaf, 0x14, 0x47, 0x41,
  0x2d, 0xd1, 0x01, 0xb0, 0xf7, 0x09, 0xea, 0x13, 0x26, 0x16, 0xda, 0x96,
  0x1e, 0x11, 0xf9, 0xd0, 0xe7, 0x28, 0x4b, 0x32, 0x34, 0x7f, 0xc6, 0x13,
  0x06, 0x05, 0x0e, 0xfd, 0x44, 0x12, 0xad, 0x24, 0xce, 0x08, 0x3d, 0xcb,
  0x0d, 0x1d, 0xa7, 0xba, 0x61, 0x2a, 0xeb, 0xf5, 0x81, 0xd4, 0x29, 0xed,
  0xca, 0x40, 0x3a, 0xf4, 0xc3, 0x50, 0x02, 0xaf, 0xe4, 0x01, 0xb7, 0xc4,
  0x05, 0x2b, 0x17, 0x04, 0x1d, 0xe8, 0xb3, 0x2b, 0x15, 0x25, 0x03, 0xef,
  0xe5, 0xe2, 0x1d, 0xf8, 0xf8, 0x00, 0xe6, 0x12, 0xc2, 0x09, 0x69, 0x62,
  0x2c, 0x53, 0xf6, 0x2f, 0x2c, 0x48, 0xde, 0x36, 0x13, 0xa9, 0x38, 0x27,
  0x09, 0x27, 0x05, 0xe7, 0x42, 0xa9, 0xe2, 0x21, 0xed, 0xce, 0x11, 0xfb,
  0x23, 0x3e, 0x4b, 0xc0, 0xb2, 0x68, 0xe8, 0x8c, 0x49, 0xff, 0xb5, 0xed,
  0x37, 0x51, 0xf2, 0x4e, 0xfc, 0xe8, 0x79, 0xfa, 0xb9, 0x3d, 0x01, 0xcc,
  0xd4, 0x73, 0x4e, 0x60, 0x38, 0xb0, 0xfa, 0x7f, 0xcf, 0x98, 0x66, 0x30,
  0x81, 0x25, 0x5a, 0x44, 0x1f, 0x48, 0xc5, 0xb6, 0x5b, 0xc9, 0xed, 0x23,
  0x13, 0xb1, 0x1c, 0x35, 0x20, 0xea, 0xf7, 0xfa, 0x18, 0xec, 0xbe, 0xf4,
  0xe9, 0x25, 0xf1, 0xd7, 0x22, 0xee, 0xff, 0x16, 0xd1, 0xd7, 0x00, 0x2d,
  0x05, 0xc3, 0x2c, 0x02, 0xf6, 0xfa, 0xdf, 0xf3, 0xd4, 0xed, 0x26, 0xae,
  0xe9, 0x16, 0xaf, 0xe8, 0x02, 0xd7, 0xe7, 0x81, 0xec, 0xb5, 0x43, 0x46,
  0x96, 0x6e, 0xc2, 0x0a, 0x3b, 0xcf, 0x67, 0xa4, 0x00, 0x1b, 0xe6, 0xfb,
  0x23, 0xbb, 0x33, 0xd5, 0x33, 0x14, 0xd3, 0x23, 0xac, 0xd4, 0x33, 0xef,
  0xfe, 0x05, 0xb8, 0xde, 0x06, 0x1b, 0xd4, 0xd5, 0x17, 0x12, 0xb8, 0xb1,
  0xe9, 0x18, 0x36, 0xc9, 0xc9, 0xdd, 0x06, 0xbb, 0x02, 0x30, 0xcb, 0x2b,
  0xf4, 0x32, 0x07, 0xcd, 0x18, 0xed, 0xc4, 0x42, 0xf9, 0x15, 0x47, 0xf2,
  0x07, 0xf9, 0x19, 0xcc, 0xd6, 0x56, 0x00, 0xe6, 0x48, 0x04, 0xd2, 0x2a,
  0x26, 0x4a, 0x7f, 0x01, 0xaf, 0xa8, 0x7b, 0xe1, 0xaa, 0x27, 0x59, 0xa2,
  0x28, 0x44, 0xaf, 0xf0, 0xc8, 0xee, 0x1d, 0xa1, 0x1f, 0xe2, 0x37, 0x13,
  0x87, 0x81, 0x34, 0x34, 0x03, 0xb4, 0xa3, 0x81, 0x1c, 0xe7, 0x4e, 0xfc,
  0x1b, 0xff, 0xa5, 0x0a, 0xe2, 0x64, 0x3c, 0xb4, 0x3e, 0x10, 0xe3, 0x50,
  0xcb, 0x7c, 0x72, 0x3e, 0x41, 0x09, 0xb6, 0x03, 0xda, 0xe0, 0x64, 0xf6,
  0xe2, 0xe4, 0xb5, 0xdd, 0xc7, 0x45, 0x26, 0x13, 0x2d, 0x57, 0xc3, 0x03,
  0xa6, 0x48, 0x3e, 0x0c, 0xfb, 0xd7, 0x33, 0x6f, 0x03, 0xa1, 0x59, 0xed,
  0xc4, 0x72, 0xba, 0x22, 0xd2, 0xe9, 0x00, 0x1e, 0xdd, 0x0f, 0xcd, 0x48,
  0xd3, 0x6f, 0x06, 0xbf, 0xbd, 0xd3, 0x40, 0x60, 0x5b, 0xd6, 0x1f, 0xb5,
  0xf1, 0xd0, 0x3e, 0x06, 0xe1, 0x0d, 0xbf, 0x23, 0xcf, 0x47, 0xba, 0x3e,
  0xcf, 0x18, 0xc1, 0x32, 0x19, 0x08, 0x3a, 0x20, 0x15, 0x0b, 0xcd, 0x27,
  0x3d, 0xe4, 0xd4, 0x0e, 0x81, 0x55, 0xc2, 0x20, 0xdc, 0xc7, 0x10, 0x03,
  0x22, 0xc8, 0x9a, 0x3d, 0x33, 0xce, 0x3b, 0xe2, 0xbe, 0x17, 0xd2, 0x04,
  0xa8, 0x4d, 0xd9, 0xfc, 0xb4, 0xc0, 0x12, 0xd1, 0x2a, 0xa3, 0x40, 0x01,
  0xcb, 0xc3, 0x69, 0xea, 0xf7, 0x09, 0xe1, 0x07, 0xe9, 0x2c, 0x0f, 0x81,
  0x3b, 0x32, 0x14, 0x5f, 0x98, 0x99, 0xfb, 0x8c, 0x55, 0x3b, 0xbd, 0x65,
  0x4e, 0xec, 0x23, 0x14, 0xf6, 0x17, 0x07, 0x5a, 0xc8, 0xdd, 0xc4, 0x3c,
  0x74, 0xb0, 0xc3, 0x2d, 0xde, 0xfc, 0xd7, 0x1e, 0xee, 0x1f, 0x02, 0x27,
  0xce, 0x30, 0x1e, 0xe6, 0xfa, 0xe0, 0x9b, 0x2a, 0xf3, 0xcc, 0x05, 0x34,
  0x1a, 0xde, 0x03, 0x30, 0x3f, 0x3d, 0xb4, 0xbd, 0x42, 0x2a, 0xb5, 0x30,
  0xd5, 0xee, 0x3e, 0xdc, 0x41, 0x1c, 0x3b, 0x48, 0xa3, 0x44, 0xf4, 0xd4,
  0x35, 0x2c, 0xa6, 0x6a, 0xf9, 0x0a, 0xd9, 0xdf, 0x09, 0xb2, 0x3d, 0xfb,
  0xcd, 0x3a, 0x7f, 0xf2, 0x21, 0xd9, 0xc0, 0x08, 0xc7, 0x44, 0xdc, 0x81,
  0xed, 0x46, 0x4c, 0xd2, 0xd5, 0x24, 0xa3, 0x95, 0x10, 0xc8, 0xd7, 0xf8,
  0x48, 0xfc, 0x13, 0x4b, 0xd8, 0xf0, 0xe5, 0xd7, 0x52, 0xdd, 0x4a, 0xe7,
  0xce, 0xc3, 0x37, 0xdc, 0xf1, 0xfd, 0x54, 0x17, 0x12, 0x02, 0xb8, 0x3a,
  0xdf, 0xfe, 0xd2, 0xd0, 0x04, 0x05, 0x30, 0x1b, 0xc6, 0x1b, 0x1d, 0xfe,
  0xfe, 0x17, 0xc7, 0xc9, 0xef, 0xee, 0x0d, 0xf5, 0x32, 0x2c, 0xfc, 0xf3,
  0xbe, 0x06, 0xd6, 0x0f, 0x20, 0x59, 0xef, 0xd3, 0x65, 0x07, 0xcf, 0x1f,
  0x2d, 0xb8, 0x1e, 0x47, 0x14, 0x0f, 0x2c, 0xbb, 0xea, 0x53, 0x08, 0xb8,
  0x14, 0x31, 0xc0, 0xdc, 0x5a, 0x3f, 0x49, 0x45, 0x98, 0xc2, 0x6e, 0xd7,
  0xb1, 0x16, 0x22, 0xc3, 0xf0, 0x2e, 0x09, 0x7e, 0x57, 0xcd, 0xcb, 0x50,
  0x08, 0x96, 0x46, 0x4a, 0x81, 0xff, 0x44, 0xc0, 0xa6, 0x13, 0xf6, 0xcb,
  0x1b, 0x2c, 0xe2, 0xf8, 0xe3, 0xfb, 0xf2, 0x03, 0xc6, 0xe4, 0x31, 0x07,
  0x0c, 0xd9, 0x28, 0xa4, 0xd4, 0x4d, 0x39, 0x20, 0xa8, 0xeb, 0x91, 0xe2,
  0x30, 0xed, 0x08, 0xf3, 0x11, 0xca, 0x10, 0x09, 0x00, 0xf7, 0xde, 0xf8,
  0xc7, 0xc9, 0x04, 0x25, 0x7f, 0x2f, 0x5f, 0x0d, 0x01, 0xfb, 0xe7, 0x0c,
  0xd6, 0xed, 0x46, 0xdd, 0xee, 0xf2, 0x28, 0x0b, 0x08, 0xd7, 0xc4, 0x1a,
  0x20, 0x3d, 0x43, 0xe8, 0x1a, 0xe9, 0xea, 0xf7, 0xc2, 0x23, 0x4c, 0x12,
  0x35, 0xbf, 0x19, 0x91, 0x3a, 0x35, 0x74, 0x2d, 0x12, 0x00, 0xa1, 0xe8,
  0xc2, 0xf7, 0xf5, 0x29, 0xef, 0x36, 0x5f, 0x5d, 0x0c, 0x7f, 0xbc, 0x12,
  0x19, 0x69, 0x17, 0x13, 0xe3, 0xdf, 0xa0, 0x4b, 0x41, 0xf3, 0xf4, 0x2e,
  0x6a, 0x65, 0x32, 0xe2, 0xeb, 0x1b, 0xde, 0xf5, 0x08, 0xf9, 0x4a, 0x03,
  0x14, 0x9d, 0x24, 0x46, 0x17, 0x2a, 0x2c, 0xcc, 0xf6, 0x28, 0x38, 0xc2,
  0x67, 0x0f, 0xbd, 0x2c, 0xd3, 0x3c, 0x98, 0x20, 0x38, 0x2e, 0x10, 0x27,
  0xf8, 0x65, 0x32, 0xeb, 0x5a, 0xe2, 0xc0, 0x0a, 0x91, 0x17, 0x09, 0xc8,
  0x00, 0x16, 0x2e, 0xd0, 0x02, 0x4d, 0x2b, 0x9e, 0x33, 0x99, 0x2b, 0x07,
  0x79, 0x18, 0x2d, 0xa5, 0xa5, 0xd8, 0x37, 0x81, 0x0a, 0xe9, 0x0b, 0xe1,
  0xd4, 0x59, 0xac, 0x44, 0x60, 0xb9, 0x18, 0xb0, 0xcf, 0x3f, 0x40, 0xb0,
  0x40, 0xdf, 0xab, 0x25, 0x44, 0x09, 0xb2, 0xb4, 0xe7, 0x1a, 0x12, 0x05,
  0x14, 0x35, 0xdc, 0x16, 0x2f, 0x40, 0x0e, 0x0e, 0xe7, 0x4f, 0x56, 0x15,
  0x33, 0x15, 0x65, 0x20, 0xe5, 0x1e, 0xe1, 0xe6, 0xcf, 0x27, 0x68, 0x37,
  0x0c, 0xd2, 0xde, 0x16, 0x2a, 0x14, 0xc2, 0xdc, 0x18, 0x4e, 0x4f, 0xde,
  0xb5, 0x81, 0x0b, 0x08, 0x4e, 0xa1, 0x10, 0x47, 0x10, 0xdf, 0xd6, 0xc7,
  0x3c, 0x01, 0x34, 0x11, 0xdf, 0x46, 0x20, 0xc4, 0x00, 0x36, 0x0c, 0x15,
  0x37, 0xd1, 0xf6, 0xf1, 0xb6, 0xcf, 0x16, 0xbe, 0xe2, 0x49, 0x37, 0x35,
  0x47, 0xbd, 0x58, 0x55, 0xea, 0xb9, 0x7a, 0xdf, 0xf6, 0xca, 0x9b, 0xad,
  0xb8, 0x81, 0x06, 0x36, 0x4d, 0xa0, 0x4a, 0x00, 0x52, 0x21, 0xe9, 0x26,
  0x24, 0x1d, 0x96, 0x01, 0x06, 0x1c, 0xf9, 0x50, 0xe1, 0x49, 0x16, 0xf8,
  0xfb, 0xd2, 0x5a, 0x0d, 0x1e, 0x30, 0x15, 0x83, 0x3a, 0x0d, 0x19, 0xc6,
  0x0c, 0x3c, 0x17, 0x24, 0xd4, 0x0e, 0x27, 0xf2, 0x11, 0xdf, 0x02, 0x16,
  0x44, 0x4c, 0x50, 0x49, 0x3c, 0x98, 0xb5, 0xec, 0x68, 0x16, 0x4b, 0xc6,
  0x38, 0xe0, 0xd1, 0xbd, 0x24, 0x46, 0xb7, 0xb8, 0xc9, 0x7b, 0x4e, 0xdd,
  0xdb, 0x10, 0xd9, 0x08, 0x23, 0xba, 0xcc, 0xa0, 0x38, 0x12, 0x63, 0xe8,
  0x3b, 0xfb, 0xf9, 0xef, 0x15, 0x9b, 0x00, 0x83, 0xec, 0xb2, 0x14, 0xc9,
  0x0f, 0xab, 0xc8, 0x81, 0x7e, 0xdf, 0x37, 0xce, 0xa2, 0x17, 0x0b, 0x90,
  0xa5, 0x3d, 0xa1, 0x04, 0x10, 0xe1, 0xe5, 0x1f, 0xba, 0x1c, 0xe4, 0x67,
  0xd1, 0xa9, 0x99, 0xa9, 0x17, 0xc5, 0x27, 0xd2, 0x29, 0xec, 0x3d, 0xcb,
  0xbc, 0xc5, 0xdd, 0xc9, 0x6e, 0xef, 0x29, 0xf5, 0x06, 0xd5, 0x91, 0xf2,
  0x06, 0xc3, 0x1e, 0x41, 0x2b, 0x4c, 0xa5, 0x25, 0xfb, 0x3f, 0x1a, 0x34,
  0x3d, 0xd4, 0x5a, 0x81, 0xe8, 0x1d, 0x12, 0x0e, 0xad, 0xec, 0x1b, 0x9e,
  0xe2, 0xd1, 0x0a, 0xc1, 0x56, 0x39, 0x19, 0xcd, 0xf8, 0x2a, 0xd9, 0x0d,
  0x3e, 0xd0, 0x61, 0x0d, 0x08, 0xbb, 0xc9, 0x0b, 0x81, 0x6a, 0x08, 0x19,
  0x65, 0x72, 0x09, 0x1d, 0xed, 0xa6, 0x21, 0xf1, 0xff, 0x18, 0x0a, 0x52,
  0x8f, 0x61, 0xb1, 0x29, 0xfe, 0xee, 0xd2, 0xc8, 0x28, 0x35, 0xbe, 0x15,
  0x79, 0x9c, 0x65, 0xc4, 0xa1, 0x12, 0xc3, 0xb5, 0x52, 0xd5, 0x12, 0x35,
  0x42, 0xfd, 0xe7, 0x11, 0x6a, 0x25, 0x58, 0xf6, 0xdc, 0x42, 0xe4, 0x00,
  0x34, 0x29, 0x0a, 0xee, 0xdf, 0x0b, 0x4d, 0xbf, 0xfc, 0x1a, 0x27, 0xc9,
  0x1b, 0x01, 0xd5, 0x11, 0xe2, 0xd3, 0x49, 0x16, 0xdd, 0x4b, 0xd0, 0xc8,
  0x35, 0xda, 0x07, 0xe0, 0x11, 0xa8, 0x3b, 0x9a, 0x20, 0xc1, 0x12, 0x1d,
  0xd7, 0xdf, 0x37, 0x49, 0x28, 0xea, 0x20, 0xf0, 0xcd, 0xbf, 0xc2, 0xdc,
  0x2d, 0xf0, 0x4d, 0x00, 0x7f, 0xea, 0x22, 0x1b, 0xea, 0xd9, 0xf1, 0xd3,
  0x38, 0x3e, 0x3c, 0xea, 0x16, 0x94, 0xfd, 0xd1, 0x7c, 0x56, 0xaf, 0x31,
  0x1f, 0xf4, 0x1e, 0xe1, 0x27, 0x0c, 0xd3, 0xba, 0x94, 0x51, 0x6f, 0xcc,
  0x25, 0x4b, 0xd4, 0x99, 0x5b, 0x47, 0x81, 0xff, 0xa9, 0x38, 0x17, 0x8a,
  0xc9, 0x43, 0xf2, 0x0d, 0x09, 0x4d, 0x3c, 0xc1, 0x0a, 0x13, 0xd7, 0xd9,
  0x06, 0x21, 0x97, 0xbb, 0x20, 0x8f, 0xcd, 0x28, 0xc3, 0x4f, 0x60, 0x02,
  0xca, 0x26, 0x2e, 0x83, 0x1a, 0x22, 0xe6, 0xda, 0xf8, 0x1d, 0x5b, 0x56,
  0xcd, 0xe2, 0x08, 0xf0, 0x08, 0xc3, 0xb6, 0xa8, 0xb1, 0x56, 0xcc, 0xa9,
  0x4a, 0x3a, 0x1b, 0x27, 0x4c, 0x3f, 0xc3, 0xe9, 0x9f, 0x40, 0x5a, 0xc0,
  0x48, 0x7f, 0xd3, 0x31, 0x42, 0x2a, 0x5a, 0x13, 0xf1, 0x16, 0x1d, 0xe8,
  0x22, 0xf3, 0x22, 0xda, 0xe9, 0xcc, 0xf7, 0x1e, 0xc2, 0x91, 0x4c, 0xfd,
  0x2b, 0x1c, 0x56, 0xf5, 0x9f, 0xec, 0xd4, 0xd4, 0x5a, 0xcd, 0xf4, 0x60,
  0xcc, 0xcf, 0x9d, 0x15, 0x81, 0x97, 0x0d, 0xee, 0xb1, 0x1a, 0x59, 0xa6,
  0xd7, 0x37, 0xc6, 0xce, 0x94, 0xf9, 0xc7, 0xd1, 0x00, 0xec, 0x10, 0x31,
  0x11, 0xe1, 0xfa, 0x15, 0xb1, 0x0e, 0x20, 0xbd, 0x40, 0x3e, 0x01, 0xdb,
  0xd8, 0x07, 0x21, 0x20, 0x02, 0xd7, 0xe2, 0x37, 0x63, 0xb9, 0xab, 0xd9,
  0x02, 0x94, 0x3c, 0x57, 0x09, 0x21, 0xc7, 0x53, 0x7c, 0xf1, 0x9c, 0xee,
  0x6b, 0xb4, 0x9d, 0xf4, 0xe5, 0xe6, 0x01, 0xbb, 0x27, 0xde, 0x5b, 0x12,
  0xd8, 0xde, 0xec, 0xc2, 0x81, 0xe3, 0x13, 0x08, 0xdf, 0x14, 0x98, 0x75,
  0x58, 0x2d, 0x59, 0xea, 0x3d, 0x48, 0x3d, 0x47, 0xf5, 0xe2, 0x33, 0x8f,
  0x7f, 0x54, 0x37, 0x41, 0x4b, 0xd4, 0x2f, 0xad, 0x0b, 0x14, 0x19, 0x03,
  0x06, 0x78, 0x50, 0xcf, 0xd7, 0xe6, 0x12, 0xf6, 0x49, 0x7a, 0x12, 0xbb,
  0x13, 0x96, 0x6c, 0xa4, 0xea, 0x30, 0x1a, 0xea, 0xf5, 0x0b, 0x4b, 0x23,
  0xa1, 0xff, 0x2b, 0xc6, 0xfd, 0xc7, 0x36, 0x33, 0x07, 0xfe, 0x57, 0x14,
  0xd3, 0xc9, 0xd8, 0xb7, 0x9b, 0xd5, 0xf0, 0x74, 0xd3, 0x14, 0x5e, 0xe9,
  0x25, 0x1c, 0x2f, 0xf9, 0xd7, 0x52, 0xcc, 0x2b, 0x4d, 0x32, 0x1b, 0xbf,
  0xca, 0xd7, 0x7f, 0x03, 0x01, 0xef, 0x18, 0x37, 0x34, 0xbe, 0x01, 0x11,
  0xec, 0x19, 0xc9, 0x3a, 0x1c, 0xfd, 0xd5, 0xf0, 0xf7, 0xea, 0x05, 0xeb,
  0x5a, 0x09, 0xfa, 0x92, 0x30, 0x17, 0x00, 0x00, 0x00, 0x00, 0x00, 0x00,
  0xb2, 0xfb, 0xff, 0xff, 0x04, 0x00, 0x00, 0x00, 0x78, 0x00, 0x00, 0x00,
  0x00, 0x00, 0x00, 0x00, 0x00, 0x00, 0x00, 0x00, 0x00, 0x00, 0x00, 0x00,
  0x00, 0x00, 0x00, 0x00, 0x00, 0x00, 0x00, 0x00, 0x00, 0x00, 0x00, 0x00,
  0x00, 0x00, 0x00, 0x00, 0x00, 0x00, 0x00, 0x00, 0x00, 0x00, 0x00, 0x00,
  0x00, 0x00, 0x00, 0x00, 0x00, 0x00, 0x00, 0x00, 0x00, 0x00, 0x00, 0x00,
  0x00, 0x00, 0x00, 0x00, 0x00, 0x00, 0x00, 0x00, 0x00, 0x00, 0x00, 0x00,
  0x00, 0x00, 0x00, 0x00, 0x00, 0x00, 0x00, 0x00, 0x00, 0x00, 0x00, 0x00,
  0x00, 0x00, 0x00, 0x00, 0x00, 0x00, 0x00, 0x00, 0x00, 0x00, 0x00, 0x00,
  0x00, 0x00, 0x00, 0x00, 0x00, 0x00, 0x00, 0x00, 0x00, 0x00, 0x00, 0x00,
  0x00, 0x00, 0x00, 0x00, 0x00, 0x00, 0x00, 0x00, 0x00, 0x00, 0x00, 0x00,
  0x00, 0x00, 0x00, 0x00, 0x00, 0x00, 0x00, 0x00, 0x00, 0x00, 0x00, 0x00,
  0x00, 0x00, 0x00, 0x00, 0x00, 0x00, 0x00, 0x00, 0x00, 0x00, 0x00, 0x00,
  0x42, 0xfc, 0xff, 0xff, 0x04, 0x00, 0x00, 0x00, 0x58, 0x02, 0x00, 0x00,
  0xc0, 0x00, 0x02, 0x41, 0x07, 0xf6, 0x05, 0xb5, 0xe7, 0xdd, 0x08, 0x2b,
  0xd9, 0x2a, 0xfe, 0xbb, 0xd6, 0xd9, 0x49, 0x41, 0x3a, 0x1b, 0xc4, 0x4f,
  0x47, 0xc3, 0x11, 0x08, 0x12, 0xf8, 0xc8, 0x29, 0xda, 0x30, 0x51, 0xf7,
  0xef, 0xc0, 0xf4, 0xb6, 0xd7, 0x48, 0xef, 0x33, 0xe5, 0x81, 0x3b, 0x3d,
  0x48, 0xfd, 0xf8, 0x0a, 0x18, 0xf1, 0x05, 0xd0, 0x0f, 0xc3, 0x37, 0x33,
  0xf5, 0x1e, 0xc4, 0xf5, 0x3b, 0x2f, 0xbb, 0xdd, 0xe7, 0xe8, 0xfc, 0x2f,
  0x13, 0x25, 0xd6, 0xac, 0x0a, 0x0b, 0x02, 0x21, 0xc7, 0xef, 0x16, 0x33,
  0xd8, 0xdc, 0x5b, 0xb9, 0x1a, 0x43, 0xbd, 0xfe, 0x24, 0x14, 0x2a, 0x06,
  0xd7, 0xe4, 0xc6, 0xd3, 0x43, 0x48, 0x2b, 0x60, 0xb4, 0x9b, 0xe3, 0x51,
  0x14, 0x28, 0xca, 0x13, 0x30, 0x0c, 0x21, 0xe8, 0x38, 0x32, 0x46, 0xf1,
  0xb4, 0x34, 0x1d, 0xc8, 0x38, 0xc5, 0x0f, 0xb4, 0x06, 0xd0, 0x4c, 0xe9,
  0x11, 0x1b, 0xfa, 0xb3, 0xcf, 0xd3, 0xcc, 0x24, 0xc8, 0x27, 0x34, 0x4d,
  0x2f, 0xcb, 0x3a, 0xe9, 0x3e, 0x09, 0xc2, 0x4f, 0x13, 0xe9, 0x48, 0xdd,
  0xac, 0x9a, 0xb4, 0xb3, 0x2a, 0x2e, 0xca, 0x34, 0xdb, 0xa9, 0xec, 0xf4,
  0x43, 0x20, 0x4f, 0xd9, 0xd1, 0x18, 0x43, 0x01, 0x32, 0xff, 0x06, 0xfd,
  0x02, 0x58, 0xf1, 0x1f, 0x2d, 0x06, 0x16, 0xc3, 0xf2, 0xd0, 0x2b, 0x17,
  0x2d, 0x36, 0xd2, 0xd2, 0xfe, 0x30, 0xdb, 0xee, 0xfe, 0x33, 0x30, 0x14,
  0xd9, 0x11, 0x39, 0xe9, 0x0a, 0x43, 0xa9, 0x14, 0xcd, 0x3f, 0x2a, 0x39,
  0x17, 0x03, 0xf4, 0xb0, 0xe7, 0x4a, 0x48, 0x1d, 0xf5, 0xdb, 0xdf, 0xd8,
  0x1a, 0xfa, 0x0f, 0x19, 0x03, 0x5f, 0xe8, 0xff, 0xf6, 0xdb, 0x4a, 0xfe,
  0xb5, 0x27, 0xb4, 0x1b, 0x29, 0xf4, 0xed, 0xe8, 0x23, 0xc1, 0xe5, 0x09,
  0x2a, 0x3e, 0xe1, 0xa3, 0xf7, 0x41, 0xda, 0x48, 0x26, 0x1f, 0x2e, 0x0e,
  0x0f, 0xd8, 0x08, 0xf8, 0x1b, 0xbd, 0xbd, 0x63, 0x25, 0xf1, 0x19, 0xc6,
  0x09, 0xc0, 0xf5, 0xf1, 0x21, 0x10, 0xf1, 0x2e, 0xe6, 0xcc, 0xb9, 0xf8,
  0xe9, 0x35, 0x24, 0x0e, 0x3b, 0x27, 0x12, 0xc6, 0x14, 0xc3, 0x4a, 0x25,
  0xfa, 0xb1, 0x27, 0xcd, 0xc5, 0x10, 0x17, 0x7b, 0x39, 0x58, 0xec, 0xc1,
  0xde, 0xbe, 0x11, 0x64, 0xe2, 0x03, 0xad, 0x03, 0x01, 0x00, 0xe0, 0xc7,
  0xc4, 0x21, 0x07, 0x1c, 0xd6, 0x27, 0x4f, 0x11, 0x14, 0xc7, 0xf4, 0xfb,
  0x22, 0x30, 0xfa, 0xf8, 0xe8, 0x13, 0x24, 0x13, 0x38, 0x26, 0xc6, 0xc5,
  0x0a, 0xc9, 0x00, 0x00, 0xb2, 0x18, 0x07, 0xe8, 0xee, 0x3b, 0x1c, 0x05,
  0x2f, 0xf4, 0xe3, 0xca, 0xc8, 0xed, 0xee, 0x50, 0x11, 0x3c, 0xcb, 0xd5,
  0xc9, 0xcb, 0xf5, 0x26, 0x1a, 0x2a, 0xe5, 0x05, 0xf3, 0x10, 0xc6, 0xc3,
  0x33, 0x50, 0xea, 0x11, 0xe4, 0x21, 0x4d, 0xe0, 0xe2, 0xe9, 0xc4, 0xd3,
  0xf5, 0x4f, 0x3a, 0x62, 0xf9, 0xce, 0x18, 0xfa, 0x2d, 0x7b, 0x27, 0x04,
  0x15, 0xe7, 0x0a, 0x11, 0xdd, 0xf6, 0xcb, 0x32, 0x1b, 0x0a, 0xad, 0x41,
  0x29, 0xeb, 0xf6, 0xca, 0xce, 0x46, 0xe1, 0x36, 0x3b, 0x22, 0xd6, 0xc8,
  0xc4, 0x01, 0xf4, 0x59, 0x3e, 0xd0, 0x09, 0xd7, 0x0d, 0xe7, 0xae, 0xbb,
  0x0c, 0x3a, 0x0c, 0xf3, 0x0c, 0xbd, 0x00, 0xe9, 0x44, 0xf0, 0xe8, 0x15,
  0x29, 0x5c, 0x4c, 0xf9, 0x0c, 0xc3, 0x3c, 0x0d, 0x28, 0x71, 0x07, 0xf6,
  0xdf, 0x11, 0xe4, 0x12, 0x00, 0xaa, 0xf1, 0x2e, 0xd1, 0x40, 0xb0, 0xe2,
  0x49, 0x08, 0x37, 0xc0, 0xe1, 0xe6, 0x3c, 0x57, 0x2f, 0x2a, 0xe4, 0xf3,
  0x38, 0xec, 0xf2, 0x50, 0xc3, 0xdb, 0x19, 0xe2, 0xbe, 0xc0, 0x0a, 0xfb,
  0x19, 0x2c, 0xdf, 0x25, 0xcf, 0xde, 0x3e, 0xc4, 0x26, 0xc6, 0xfc, 0x00,
  0x3e, 0x69, 0x12, 0x3e, 0x31, 0xf5, 0xcf, 0x92, 0x26, 0x6d, 0xc8, 0x1f,
  0x32, 0xea, 0x13, 0xd8, 0xfa, 0xbf, 0xf1, 0x3a, 0xdf, 0x37, 0xdf, 0xce,
  0x30, 0xd5, 0x13, 0xf0, 0xd2, 0xee, 0x38, 0x43, 0x1b, 0x51, 0x1a, 0xc6,
  0xd0, 0xde, 0x45, 0x4e, 0xef, 0xeb, 0xf9, 0xda, 0x0c, 0xd0, 0xd6, 0xc5,
  0x15, 0x48, 0xd7, 0x26, 0xe7, 0xf2, 0x4b, 0xe2, 0x45, 0x23, 0xec, 0x4c,
  0x04, 0x5a, 0x43, 0x0e, 0xe4, 0xf0, 0xd2, 0x0b, 0x1e, 0x43, 0xde, 0xd6,
  0x0b, 0xce, 0x13, 0x00, 0xda, 0xcc, 0xf3, 0x0b, 0xcd, 0x23, 0xd0, 0xc3,
  0x00, 0x00, 0x00, 0x00, 0x00, 0x00, 0x00, 0x00, 0x00, 0x00, 0x00, 0x00,
  0xb2, 0xfe, 0xff, 0xff, 0x04, 0x00, 0x00, 0x00, 0x08, 0x00, 0x00, 0x00,
  0xfc, 0x00, 0x00, 0x00, 0x04, 0xff, 0xff, 0xff, 0x00, 0x00, 0x00, 0x00,
  0x00, 0x00, 0x00, 0x00, 0x00, 0x00, 0x00, 0x00, 0xd2, 0xfe, 0xff, 0xff,
  0x04, 0x00, 0x00, 0x00, 0x08, 0x00, 0x00, 0x00, 0xff, 0xff, 0xff, 0xff,
  0x2c, 0x01, 0x00, 0x00, 0x00, 0x00, 0x00, 0x00, 0x00, 0x00, 0x00, 0x00,
  0x00, 0x00, 0x00, 0x00, 0xf2, 0xfe, 0xff, 0xff, 0x04, 0x00, 0x00, 0x00,
  0x1e, 0x00, 0x00, 0x00, 0xc6, 0x10, 0xe4, 0x46, 0x18, 0xa6, 0xd5, 0x81,
  0x9f, 0xa8, 0x1d, 0x18, 0x28, 0x14, 0xd9, 0x94, 0xe6, 0xe4, 0x14, 0x23,
  0x29, 0x16, 0x22, 0x04, 0xeb, 0xdc, 0x16, 0xda, 0x22, 0x44, 0x00, 0x00,
  0x00, 0x00, 0x00, 0x00, 0x00, 0x00, 0x00, 0x00, 0x00, 0x00, 0x00, 0x00,
  0x4c, 0xf1, 0xff, 0xff, 0x00, 0x00, 0x00, 0x00, 0x00, 0x00, 0x00, 0x00,
  0x00, 0x00, 0x00, 0x00, 0x5c, 0xf1, 0xff, 0xff, 0x00, 0x00, 0x00, 0x00,
  0x00, 0x00, 0x00, 0x00, 0x0f, 0x00, 0x00, 0x00, 0x4d, 0x4c, 0x49, 0x52,
  0x20, 0x43, 0x6f, 0x6e, 0x76, 0x65, 0x72, 0x74, 0x65, 0x64, 0x2e, 0x00,
  0x01, 0x00, 0x00, 0x00, 0x14, 0x00, 0x00, 0x00, 0x00, 0x00, 0x0e, 0x00,
  0x18, 0x00, 0x04, 0x00, 0x08, 0x00, 0x0c, 0x00, 0x10, 0x00, 0x14, 0x00,
  0x0e, 0x00, 0x00, 0x00, 0x80, 0x02, 0x00, 0x00, 0x74, 0x02, 0x00, 0x00,
  0x68, 0x02, 0x00, 0x00, 0x14, 0x00, 0x00, 0x00, 0x04, 0x00, 0x00, 0x00,
  0x04, 0x00, 0x00, 0x00, 0x6d, 0x61, 0x69, 0x6e, 0x00, 0x00, 0x00, 0x00,
  0x0b, 0x00, 0x00, 0x00, 0x2c, 0x02, 0x00, 0x00, 0xfc, 0x01, 0x00, 0x00,
  0xb0, 0x01, 0x00, 0x00, 0x7c, 0x01, 0x00, 0x00, 0x44, 0x01, 0x00, 0x00,
  0x20, 0x01, 0x00, 0x00, 0xd0, 0x00, 0x00, 0x00, 0x9c, 0x00, 0x00, 0x00,
  0x64, 0x00, 0x00, 0x00, 0x28, 0x00, 0x00, 0x00, 0x04, 0x00, 0x00, 0x00,
  0x0a, 0xfe, 0xff, 0xff, 0x07, 0x00, 0x00, 0x00, 0x10, 0x00, 0x00, 0x00,
  0x04, 0x00, 0x00, 0x00, 0x01, 0x00, 0x00, 0x00, 0x14, 0x00, 0x00, 0x00,
  0x01, 0x00, 0x00, 0x00, 0x12, 0x00, 0x00, 0x00, 0x72, 0xff, 0xff, 0xff,
  0x00, 0x00, 0x00, 0x09, 0x05, 0x00, 0x00, 0x00, 0x24, 0x00, 0x00, 0x00,
  0x18, 0x00, 0x00, 0x00, 0x0c, 0x00, 0x00, 0x00, 0x00, 0x00, 0x06, 0x00,
  0x08, 0x00, 0x04, 0x00, 0x06, 0x00, 0x00, 0x00, 0x00, 0x00, 0x80, 0x3f,
  0x01, 0x00, 0x00, 0x00, 0x12, 0x00, 0x00, 0x00, 0x01, 0x00, 0x00, 0x00,
  0x11, 0x00, 0x00, 0x00, 0xda, 0xfe, 0xff, 0xff, 0x00, 0x00, 0x00, 0x08,
  0x04, 0x00, 0x00, 0x00, 0x18, 0x00, 0x00, 0x00, 0x0c, 0x00, 0x00, 0x00,
  0x04, 0x00, 0x00, 0x00, 0x58, 0xf2, 0xff, 0xff, 0x01, 0x00, 0x00, 0x00,
  0x11, 0x00, 0x00, 0x00, 0x03, 0x00, 0x00, 0x00, 0x10, 0x00, 0x00, 0x00,
  0x04, 0x00, 0x00, 0x00, 0x03, 0x00, 0x00, 0x00, 0xc2, 0xfe, 0xff, 0xff,
  0x10, 0x00, 0x00, 0x00, 0x04, 0x00, 0x00, 0x00, 0x01, 0x00, 0x00, 0x00,
  0x10, 0x00, 0x00, 0x00, 0x02, 0x00, 0x00, 0x00, 0x0f, 0x00, 0x00, 0x00,
  0x02, 0x00, 0x00, 0x00, 0x00, 0x00, 0x0e, 0x00, 0x1a, 0x00, 0x08, 0x00,
  0x0c, 0x00, 0x10, 0x00, 0x07, 0x00, 0x14, 0x00, 0x0e, 0x00, 0x00, 0x00,
  0x00, 0x00, 0x00, 0x05, 0x03, 0x00, 0x00, 0x00, 0x38, 0x00, 0x00, 0x00,
  0x2c, 0x00, 0x00, 0x00, 0x14, 0x00, 0x00, 0x00, 0x00, 0x00, 0x0e, 0x00,
  0x14, 0x00, 0x00, 0x00, 0x04, 0x00, 0x08, 0x00, 0x0c, 0x00, 0x10, 0x00,
  0x0e, 0x00, 0x00, 0x00, 0x01, 0x00, 0x00, 0x00, 0x05, 0x00, 0x00, 0x00,
  0x01, 0x00, 0x00, 0x00, 0x05, 0x00, 0x00, 0x00, 0x01, 0x00, 0x00, 0x00,
  0x0f, 0x00, 0x00, 0x00, 0x01, 0x00, 0x00, 0x00, 0x0e, 0x00, 0x00, 0x00,
  0x3e, 0xff, 0xff, 0xff, 0x10, 0x00, 0x00, 0x00, 0x04, 0x00, 0x00, 0x00,
  0x01, 0x00, 0x00, 0x00, 0x0e, 0x00, 0x00, 0x00, 0x02, 0x00, 0x00, 0x00,
  0x0d, 0x00, 0x00, 0x00, 0x09, 0x00, 0x00, 0x00, 0xaa, 0xff, 0xff, 0xff,
  0x00, 0x00, 0x00, 0x0b, 0x02, 0x00, 0x00, 0x00, 0x1c, 0x00, 0x00, 0x00,
  0x10, 0x00, 0x00, 0x00, 0x04, 0x00, 0x00, 0x00, 0x46, 0xf1, 0xff, 0xff,
  0x00, 0x00, 0x00, 0x01, 0x01, 0x00, 0x00, 0x00, 0x0d, 0x00, 0x00, 0x00,
  0x02, 0x00, 0x00, 0x00, 0x0c, 0x00, 0x00, 0x00, 0x01, 0x00, 0x00, 0x00,
  0x92, 0xff, 0xff, 0xff, 0x10, 0x00, 0x00, 0x00, 0x04, 0x00, 0x00, 0x00,
  0x01, 0x00, 0x00, 0x00, 0x0c, 0x00, 0x00, 0x00, 0x02, 0x00, 0x00, 0x00,
  0x0b, 0x00, 0x00, 0x00, 0x08, 0x00, 0x00, 0x00, 0x00, 0x00, 0x0e, 0x00,
  0x18, 0x00, 0x08, 0x00, 0x0c, 0x00, 0x10, 0x00, 0x07, 0x00, 0x14, 0x00,
  0x0e, 0x00, 0x00, 0x00, 0x00, 0x00, 0x00, 0x01, 0x01, 0x00, 0x00, 0x00,
  0x20, 0x00, 0x00, 0x00, 0x14, 0x00, 0x00, 0x00, 0x04, 0x00, 0x00, 0x00,
  0xda, 0xff, 0xff, 0xff, 0x01, 0x00, 0x00, 0x00, 0x01, 0x00, 0x00, 0x00,
  0x01, 0x00, 0x00, 0x00, 0x0b, 0x00, 0x00, 0x00, 0x03, 0x00, 0x00, 0x00,
  0x0a, 0x00, 0x00, 0x00, 0x06, 0x00, 0x00, 0x00, 0x05, 0x00, 0x00, 0x00,
  0x00, 0x00, 0x0a, 0x00, 0x0c, 0x00, 0x00, 0x00, 0x04, 0x00, 0x08, 0x00,
  0x0a, 0x00, 0x00, 0x00, 0x10, 0x00, 0x00, 0x00, 0x04, 0x00, 0x00, 0x00,
  0x01, 0x00, 0x00, 0x00, 0x0a, 0x00, 0x00, 0x00, 0x02, 0x00, 0x00, 0x00,
  0x00, 0x00, 0x00, 0x00, 0x07, 0x00, 0x00, 0x00, 0x00, 0x00, 0x0a, 0x00,
  0x10, 0x00, 0x04, 0x00, 0x08, 0x00, 0x0c, 0x00, 0x0a, 0x00, 0x00, 0x00,
  0x06, 0x00, 0x00, 0x00, 0x10, 0x00, 0x00, 0x00, 0x04, 0x00, 0x00, 0x00,
  0x01, 0x00, 0x00, 0x00, 0x00, 0x00, 0x00, 0x00, 0x01, 0x00, 0x00, 0x00,
  0x13, 0x00, 0x00, 0x00, 0x01, 0x00, 0x00, 0x00, 0x14, 0x00, 0x00, 0x00,
  0x01, 0x00, 0x00, 0x00, 0x13, 0x00, 0x00, 0x00, 0x15, 0x00, 0x00, 0x00,
  0xb0, 0x0c, 0x00, 0x00, 0x10, 0x0c, 0x00, 0x00, 0xc4, 0x0b, 0x00, 0x00,
  0x44, 0x0b, 0x00, 0x00, 0xc4, 0x0a, 0x00, 0x00, 0x00, 0x09, 0x00, 0x00,
  0x34, 0x06, 0x00, 0x00, 0xe4, 0x05, 0x00, 0x00, 0x94, 0x05, 0x00, 0x00,
  0x44, 0x05, 0x00, 0x00, 0xac, 0x04, 0x00, 0x00, 0x20, 0x04, 0x00, 0x00,
  0x94, 0x03, 0x00, 0x00, 0xf8, 0x02, 0x00, 0x00, 0x64, 0x02, 0x00, 0x00,
  0xd0, 0x01, 0x00, 0x00, 0x4c, 0x01, 0x00, 0x00, 0xc8, 0x00, 0x00, 0x00,
  0x6c, 0x00, 0x00, 0x00, 0x3c, 0x00, 0x00, 0x00, 0x04, 0x00, 0x00, 0x00,
  0xd8, 0xff, 0xff, 0xff, 0x18, 0x00, 0x00, 0x00, 0x04, 0x00, 0x00, 0x00,
  0x08, 0x00, 0x00, 0x00, 0x49, 0x64, 0x65, 0x6e, 0x74, 0x69, 0x74, 0x79,
  0x00, 0x00, 0x00, 0x00, 0x02, 0x00, 0x00, 0x00, 0x01, 0x00, 0x00, 0x00,
  0x02, 0x00, 0x00, 0x00, 0x0c, 0x00, 0x0c, 0x00, 0x04, 0x00, 0x00, 0x00,
  0x00, 0x00, 0x08, 0x00, 0x0c, 0x00, 0x00, 0x00, 0x1c, 0x00, 0x00, 0x00,
  0x04, 0x00, 0x00, 0x00, 0x0d, 0x00, 0x00, 0x00, 0x72, 0x65, 0x73, 0x68,
  0x61, 0x70, 0x65, 0x5f, 0x69, 0x6e, 0x70, 0x75, 0x74, 0x00, 0x00, 0x00,
  0x02, 0x00, 0x00, 0x00, 0x01, 0x00, 0x00, 0x00, 0x7d, 0x02, 0x00, 0x00,
  0x12, 0xf4, 0xff, 0xff, 0x00, 0x00, 0x00, 0x09, 0x44, 0x00, 0x00, 0x00,
  0x13, 0x00, 0x00, 0x00, 0x28, 0x00, 0x00, 0x00, 0x04, 0x00, 0x00, 0x00,
  0x64, 0xf5, 0xff, 0xff, 0x14, 0x00, 0x00, 0x00, 0x04, 0x00, 0x00, 0x00,
  0x01, 0x00, 0x00, 0x00, 0x80, 0xff, 0xff, 0xff, 0xff, 0xff, 0xff, 0xff,
  0x01, 0x00, 0x00, 0x00, 0x00, 0x00, 0x80, 0x3b, 0x0d, 0x00, 0x00, 0x00,
  0x49, 0x64, 0x65, 0x6e, 0x74, 0x69, 0x74, 0x79, 0x5f, 0x69, 0x6e, 0x74,
  0x38, 0x00, 0x00, 0x00, 0x02, 0x00, 0x00, 0x00, 0x01, 0x00, 0x00, 0x00,
  0x02, 0x00, 0x00, 0x00, 0x6a, 0xf4, 0xff, 0xff, 0x00, 0x00, 0x00, 0x09,
  0x6c, 0x00, 0x00, 0x00, 0x12, 0x00, 0x00, 0x00, 0x44, 0x00, 0x00, 0x00,
  0x04, 0x00, 0x00, 0x00, 0x5c, 0xf4, 0xff, 0xff, 0x30, 0x00, 0x00, 0x00,
  0x24, 0x00, 0x00, 0x00, 0x18, 0x00, 0x00, 0x00, 0x04, 0x00, 0x00, 0x00,
  0x01, 0x00, 0x00, 0x00, 0xed, 0xff, 0xff, 0xff, 0xff, 0xff, 0xff, 0xff,
  0x00, 0x00, 0x00, 0x00, 0x01, 0x00, 0x00, 0x00, 0xd3, 0x04, 0xde, 0x3d,
  0x01, 0x00, 0x00, 0x00, 0x52, 0xa6, 0x7c, 0x41, 0x01, 0x00, 0x00, 0x00,
  0x49, 0xa7, 0x3d, 0xc1, 0x19, 0x00, 0x00, 0x00, 0x73, 0x65, 0x71, 0x75,
  0x65, 0x6e, 0x74, 0x69, 0x61, 0x6c, 0x2f, 0x79, 0x5f, 0x70, 0x72, 0x65,
  0x64, 0x2f, 0x42, 0x69, 0x61, 0x73, 0x41, 0x64, 0x64, 0x00, 0x00, 0x00,
  0x02, 0x00, 0x00, 0x00, 0x01, 0x00, 0x00, 0x00, 0x02, 0x00, 0x00, 0x00,
  0xea, 0xf4, 0xff, 0xff, 0x00, 0x00, 0x00, 0x09, 0x6c, 0x00, 0x00, 0x00,
  0x11, 0x00, 0x00, 0x00, 0x44, 0x00, 0x00, 0x00, 0x04, 0x00, 0x00, 0x00,
  0xdc, 0xf4, 0xff, 0xff, 0x30, 0x00, 0x00, 0x00, 0x24, 0x00, 0x00, 0x00,
  0x18, 0x00, 0x00, 0x00, 0x04, 0x00, 0x00, 0x00, 0x01, 0x00, 0x00, 0x00,
  0x80, 0xff, 0xff, 0xff, 0xff, 0xff, 0xff, 0xff, 0x00, 0x00, 0x00, 0x00,
  0x01, 0x00, 0x00, 0x00, 0x92, 0x2b, 0x44, 0x3d, 0x01, 0x00, 0x00, 0x00,
  0x66, 0x67, 0x43, 0x41, 0x01, 0x00, 0x00, 0x00, 0x00, 0x00, 0x00, 0x00,
  0x1a, 0x00, 0x00, 0x00, 0x73, 0x65, 0x71, 0x75, 0x65, 0x6e, 0x74, 0x69,
  0x61, 0x6c, 0x2f, 0x66, 0x6c, 0x61, 0x74, 0x74, 0x65, 0x6e, 0x2f, 0x52,
  0x65, 0x73, 0x68, 0x61, 0x70, 0x65, 0x00, 0x00, 0x02, 0x00, 0x00, 0x00,
  0x01, 0x00, 0x00, 0x00, 0x2c, 0x01, 0x00, 0x00, 0x6a, 0xf5, 0xff, 0xff,
  0x00, 0x00, 0x00, 0x09, 0x74, 0x00, 0x00, 0x00, 0x10, 0x00, 0x00, 0x00,
  0x44, 0x00, 0x00, 0x00, 0x04, 0x00, 0x00, 0x00, 0x5c, 0xf5, 0xff, 0xff,
  0x30, 0x00, 0x00, 0x00, 0x24, 0x00, 0x00, 0x00, 0x18, 0x00, 0x00, 0x00,
  0x04, 0x00, 0x00, 0x00, 0x01, 0x00, 0x00, 0x00, 0x80, 0xff, 0xff, 0xff,
  0xff, 0xff, 0xff, 0xff, 0x00, 0x00, 0x00, 0x00, 0x01, 0x00, 0x00, 0x00,
  0x92, 0x2b, 0x44, 0x3d, 0x01, 0x00, 0x00, 0x00, 0x66, 0x67, 0x43, 0x41,
  0x01, 0x00, 0x00, 0x00, 0x00, 0x00, 0x00, 0x00, 0x20, 0x00, 0x00, 0x00,
  0x73, 0x65, 0x71, 0x75, 0x65, 0x6e, 0x74, 0x69, 0x61, 0x6c, 0x2f, 0x6d,
  0x61, 0x78, 0x5f, 0x70, 0x6f, 0x6f, 0x6c, 0x69, 0x6e, 0x67, 0x31, 0x64,
  0x2f, 0x4d, 0x61, 0x78, 0x50, 0x6f, 0x6f, 0x6c, 0x00, 0x00, 0x00, 0x00,
  0x04, 0x00, 0x00, 0x00, 0x01, 0x00, 0x00, 0x00, 0x0a, 0x00, 0x00, 0x00,
  0x01, 0x00, 0x00, 0x00, 0x1e, 0x00, 0x00, 0x00, 0xfa, 0xf5, 0xff, 0xff,
  0x00, 0x00, 0x00, 0x09, 0x74, 0x00, 0x00, 0x00, 0x0f, 0x00, 0x00, 0x00,
  0x40, 0x00, 0x00, 0x00, 0x04, 0x00, 0x00, 0x00, 0xec, 0xf5, 0xff, 0xff,
  0x2c, 0x00, 0x00, 0x00, 0x20, 0x00, 0x00, 0x00, 0x14, 0x00, 0x00, 0x00,
  0x04, 0x00, 0x00, 0x00, 0x01, 0x00, 0x00, 0x00, 0x80, 0xff, 0xff, 0xff,
  0xff, 0xff, 0xff, 0xff, 0x01, 0x00, 0x00, 0x00, 0x92, 0x2b, 0x44, 0x3d,
  0x01, 0x00, 0x00, 0x00, 0x66, 0x67, 0x43, 0x41, 0x01, 0x00, 0x00, 0x00,
  0x00, 0x00, 0x00, 0x00, 0x24, 0x00, 0x00, 0x00, 0x73, 0x65, 0x71, 0x75,
  0x65, 0x6e, 0x74, 0x69, 0x61, 0x6c, 0x2f, 0x6d, 0x61, 0x78, 0x5f, 0x70,
  0x6f, 0x6f, 0x6c, 0x69, 0x6e, 0x67, 0x31, 0x64, 0x2f, 0x45, 0x78, 0x70,
  0x61, 0x6e, 0x64, 0x44, 0x69, 0x6d, 0x73, 0x31, 0x00, 0x00, 0x00, 0x00,
  0x04, 0x00, 0x00, 0x00, 0x01, 0x00, 0x00, 0x00, 0x31, 0x00, 0x00, 0x00,
  0x01, 0x00, 0x00, 0x00, 0x1e, 0x00, 0x00, 0x00, 0x8a, 0xf6, 0xff, 0xff,
  0x00, 0x00, 0x00, 0x09, 0x80, 0x00, 0x00, 0x00, 0x0e, 0x00, 0x00, 0x00,
  0x40, 0x00, 0x00, 0x00, 0x04, 0x00, 0x00, 0x00, 0x7c, 0xf6, 0xff, 0xff,
  0x2c, 0x00, 0x00, 0x00, 0x20, 0x00, 0x00, 0x00, 0x14, 0x00, 0x00, 0x00,
  0x04, 0x00, 0x00, 0x00, 0x01, 0x00, 0x00, 0x00, 0x80, 0xff, 0xff, 0xff,
  0xff, 0xff, 0xff, 0xff, 0x01, 0x00, 0x00, 0x00, 0x92, 0x2b, 0x44, 0x3d,
  0x01, 0x00, 0x00, 0x00, 0x66, 0x67, 0x43, 0x41, 0x01, 0x00, 0x00, 0x00,
  0x00, 0x00, 0x00, 0x00, 0x30, 0x00, 0x00, 0x00, 0x73, 0x65, 0x71, 0x75,
  0x65, 0x6e, 0x74, 0x69, 0x61, 0x6c, 0x2f, 0x63, 0x6f, 0x6e, 0x76, 0x31,
  0x64, 0x2f, 0x52, 0x65, 0x6c, 0x75, 0x3b, 0x73, 0x65, 0x71, 0x75, 0x65,
  0x6e, 0x74, 0x69, 0x61, 0x6c, 0x2f, 0x63, 0x6f, 0x6e, 0x76, 0x31, 0x64,
  0x2f, 0x42, 0x69, 0x61, 0x73, 0x41, 0x64, 0x64, 0x00, 0x00, 0x00, 0x00,
  0x03, 0x00, 0x00, 0x00, 0x01, 0x00, 0x00, 0x00, 0x31, 0x00, 0x00, 0x00,
  0x1e, 0x00, 0x00, 0x00, 0x22, 0xf7, 0xff, 0xff, 0x00, 0x00, 0x00, 0x09,
  0x70, 0x00, 0x00, 0x00, 0x0d, 0x00, 0x00, 0x00, 0x40, 0x00, 0x00, 0x00,
  0x04, 0x00, 0x00, 0x00, 0x14, 0xf7, 0xff, 0xff, 0x2c, 0x00, 0x00, 0x00,
  0x20, 0x00, 0x00, 0x00, 0x14, 0x00, 0x00, 0x00, 0x04, 0x00, 0x00, 0x00,
  0x01, 0x00, 0x00, 0x00, 0xf7, 0xff, 0xff, 0xff, 0xff, 0xff, 0xff, 0xff,
  0x01, 0x00, 0x00, 0x00, 0xbf, 0xee, 0xb8, 0x3d, 0x01, 0x00, 0x00, 0x00,
  0x39, 0x16, 0x45, 0x41, 0x01, 0x00, 0x00, 0x00, 0x68, 0x55, 0x2b, 0xc1,
  0x21, 0x00, 0x00, 0x00, 0x73, 0x65, 0x71, 0x75, 0x65, 0x6e, 0x74, 0x69,
  0x61, 0x6c, 0x2f, 0x63, 0x6f, 0x6e, 0x76, 0x31, 0x64, 0x2f, 0x63, 0x6f,
  0x6e, 0x76, 0x31, 0x64, 0x2f, 0x53, 0x71, 0x75, 0x65, 0x65, 0x7a, 0x65,
  0x31, 0x00, 0x00, 0x00, 0x03, 0x00, 0x00, 0x00, 0x01, 0x00, 0x00, 0x00,
  0x31, 0x00, 0x00, 0x00, 0x1e, 0x00, 0x00, 0x00, 0xaa, 0xf7, 0xff, 0xff,
  0x00, 0x00, 0x00, 0x09, 0x6c, 0x00, 0x00, 0x00, 0x0c, 0x00, 0x00, 0x00,
  0x44, 0x00, 0x00, 0x00, 0x04, 0x00, 0x00, 0x00, 0x9c, 0xf7, 0xff, 0xff,
  0x30, 0x00, 0x00, 0x00, 0x24, 0x00, 0x00, 0x00, 0x18, 0x00, 0x00, 0x00,
  0x04, 0x00, 0x00, 0x00, 0x01, 0x00, 0x00, 0x00, 0xf7, 0xff, 0xff, 0xff,
  0xff, 0xff, 0xff, 0xff, 0x00, 0x00, 0x00, 0x00, 0x01, 0x00, 0x00, 0x00,
  0xbf, 0xee, 0xb8, 0x3d, 0x01, 0x00, 0x00, 0x00, 0x39, 0x16, 0x45, 0x41,
  0x01, 0x00, 0x00, 0x00, 0x68, 0x55, 0x2b, 0xc1, 0x19, 0x00, 0x00, 0x00,
  0x73, 0x65, 0x71, 0x75, 0x65, 0x6e, 0x74, 0x69, 0x61, 0x6c, 0x2f, 0x63,
  0x6f, 0x6e, 0x76, 0x31, 0x64, 0x2f, 0x63, 0x6f, 0x6e, 0x76, 0x31, 0x64,
  0x32, 0x00, 0x00, 0x00, 0x04, 0x00, 0x00, 0x00, 0x01, 0x00, 0x00, 0x00,
  0x01, 0x00, 0x00, 0x00, 0x31, 0x00, 0x00, 0x00, 0x1e, 0x00, 0x00, 0x00,
  0x32, 0xf8, 0xff, 0xff, 0x00, 0x00, 0x00, 0x09, 0x78, 0x00, 0x00, 0x00,
  0x0b, 0x00, 0x00, 0x00, 0x44, 0x00, 0x00, 0x00, 0x04, 0x00, 0x00, 0x00,
  0x24, 0xf8, 0xff, 0xff, 0x30, 0x00, 0x00, 0x00, 0x24, 0x00, 0x00, 0x00,
  0x18, 0x00, 0x00, 0x00, 0x04, 0x00, 0x00, 0x00, 0x01, 0x00, 0x00, 0x00,
  0xfb, 0xff, 0xff, 0xff, 0xff, 0xff, 0xff, 0xff, 0x00, 0x00, 0x00, 0x00,
  0x01, 0x00, 0x00, 0x00, 0xb7, 0xca, 0x2a, 0x3d, 0x01, 0x00, 0x00, 0x00,
  0x9f, 0xbc, 0xaf, 0x40, 0x01, 0x00, 0x00, 0x00, 0x39, 0x83, 0xa4, 0xc0,
  0x24, 0x00, 0x00, 0x00, 0x73, 0x65, 0x71, 0x75, 0x65, 0x6e, 0x74, 0x69,
  0x61, 0x6c, 0x2f, 0x63, 0x6f, 0x6e, 0x76, 0x31, 0x64, 0x2f, 0x63, 0x6f,
  0x6e, 0x76, 0x31, 0x64, 0x2f, 0x45, 0x78, 0x70, 0x61, 0x6e, 0x64, 0x44,
  0x69, 0x6d, 0x73, 0x31, 0x00, 0x00, 0x00, 0x00, 0x04, 0x00, 0x00, 0x00,
  0x01, 0x00, 0x00, 0x00, 0x01, 0x00, 0x00, 0x00, 0x31, 0x00, 0x00, 0x00,
  0x0d, 0x00, 0x00, 0x00, 0xc6, 0xf8, 0xff, 0xff, 0x00, 0x00, 0x00, 0x02,
  0x3c, 0x00, 0x00, 0x00, 0x0a, 0x00, 0x00, 0x00, 0x0c, 0x00, 0x00, 0x00,
  0x04, 0x00, 0x00, 0x00, 0x9c, 0xf9, 0xff, 0xff, 0x23, 0x00, 0x00, 0x00,
  0x73, 0x65, 0x71, 0x75, 0x65, 0x6e, 0x74, 0x69, 0x61, 0x6c, 0x2f, 0x6d,
  0x61, 0x78, 0x5f, 0x70, 0x6f, 0x6f, 0x6c, 0x69, 0x6e, 0x67, 0x31, 0x64,
  0x2f, 0x45, 0x78, 0x70, 0x61, 0x6e, 0x64, 0x44, 0x69, 0x6d, 0x73, 0x00,
  0x01, 0x00, 0x00, 0x00, 0x04, 0x00, 0x00, 0x00, 0x12, 0xf9, 0xff, 0xff,
  0x00, 0x00, 0x00, 0x02, 0x3c, 0x00, 0x00, 0x00, 0x09, 0x00, 0x00, 0x00,
  0x0c, 0x00, 0x00, 0x00, 0x04, 0x00, 0x00, 0x00, 0xe8, 0xf9, 0xff, 0xff,
  0x20, 0x00, 0x00, 0x00, 0x73, 0x65, 0x71, 0x75, 0x65, 0x6e, 0x74, 0x69,
  0x61, 0x6c, 0x2f, 0x63, 0x6f, 0x6e, 0x76, 0x31, 0x64, 0x2f, 0x63, 0x6f,
  0x6e, 0x76, 0x31, 0x64, 0x2f, 0x53, 0x71, 0x75, 0x65, 0x65, 0x7a, 0x65,
  0x00, 0x00, 0x00, 0x00, 0x01, 0x00, 0x00, 0x00, 0x03, 0x00, 0x00, 0x00,
  0x5e, 0xf9, 0xff, 0xff, 0x00, 0x00, 0x00, 0x02, 0x3c, 0x00, 0x00, 0x00,
  0x08, 0x00, 0x00, 0x00, 0x0c, 0x00, 0x00, 0x00, 0x04, 0x00, 0x00, 0x00,
  0x34, 0xfa, 0xff, 0xff, 0x23, 0x00, 0x00, 0x00, 0x73, 0x65, 0x71, 0x75,
  0x65, 0x6e, 0x74, 0x69, 0x61, 0x6c, 0x2f, 0x63, 0x6f, 0x6e, 0x76, 0x31,
  0x64, 0x2f, 0x63, 0x6f, 0x6e, 0x76, 0x31, 0x64, 0x2f, 0x45, 0x78, 0x70,
  0x61, 0x6e, 0x64, 0x44, 0x69, 0x6d, 0x73, 0x00, 0x01, 0x00, 0x00, 0x00,
  0x04, 0x00, 0x00, 0x00, 0xaa, 0xf9, 0xff, 0xff, 0x00, 0x00, 0x00, 0x09,
  0xac, 0x02, 0x00, 0x00, 0x07, 0x00, 0x00, 0x00, 0x84, 0x02, 0x00, 0x00,
  0x04, 0x00, 0x00, 0x00, 0x9c, 0xf9, 0xff, 0xff, 0xfc, 0x01, 0x00, 0x00,
  0x7c, 0x01, 0x00, 0x00, 0xfc, 0x00, 0x00, 0x00, 0x04, 0x00, 0x00, 0x00,
  0x1e, 0x00, 0x00, 0x00, 0x00, 0x00, 0x00, 0x00, 0x00, 0x00, 0x00, 0x00,
  0x00, 0x00, 0x00, 0x00, 0x00, 0x00, 0x00, 0x00, 0x00, 0x00, 0x00, 0x00,
  0x00, 0x00, 0x00, 0x00, 0x00, 0x00, 0x00, 0x00, 0x00, 0x00, 0x00, 0x00,
  0x00, 0x00, 0x00, 0x00, 0x00, 0x00, 0x00, 0x00, 0x00, 0x00, 0x00, 0x00,
  0x00, 0x00, 0x00, 0x00, 0x00, 0x00, 0x00, 0x00, 0x00, 0x00, 0x00, 0x00,
  0x00, 0x00, 0x00, 0x00, 0x00, 0x00, 0x00, 0x00, 0x00, 0x00, 0x00, 0x00,
  0x00, 0x00, 0x00, 0x00, 0x00, 0x00, 0x00, 0x00, 0x00, 0x00, 0x00, 0x00,
  0x00, 0x00, 0x00, 0x00, 0x00, 0x00, 0x00, 0x00, 0x00, 0x00, 0x00, 0x00,
  0x00, 0x00, 0x00, 0x00, 0x00, 0x00, 0x00, 0x00, 0x00, 0x00, 0x00, 0x00,
  0x00, 0x00, 0x00, 0x00, 0x00, 0x00, 0x00, 0x00, 0x00, 0x00, 0x00, 0x00,
  0x00, 0x00, 0x00, 0x00, 0x00, 0x00, 0x00, 0x00, 0x00, 0x00, 0x00, 0x00,
  0x00, 0x00, 0x00, 0x00, 0x00, 0x00, 0x00, 0x00, 0x00, 0x00, 0x00, 0x00,
  0x00, 0x00, 0x00, 0x00, 0x00, 0x00, 0x00, 0x00, 0x00, 0x00, 0x00, 0x00,
  0x00, 0x00, 0x00, 0x00, 0x00, 0x00, 0x00, 0x00, 0x00, 0x00, 0x00, 0x00,
  0x00, 0x00, 0x00, 0x00, 0x00, 0x00, 0x00, 0x00, 0x00, 0x00, 0x00, 0x00,
  0x00, 0x00, 0x00, 0x00, 0x00, 0x00, 0x00, 0x00, 0x00, 0x00, 0x00, 0x00,
  0x00, 0x00, 0x00, 0x00, 0x00, 0x00, 0x00, 0x00, 0x00, 0x00, 0x00, 0x00,
  0x00, 0x00, 0x00, 0x00, 0x00, 0x00, 0x00, 0x00, 0x00, 0x00, 0x00, 0x00,
  0x00, 0x00, 0x00, 0x00, 0x00, 0x00, 0x00, 0x00, 0x00, 0x00, 0x00, 0x00,
  0x00, 0x00, 0x00, 0x00, 0x00, 0x00, 0x00, 0x00, 0x00, 0x00, 0x00, 0x00,
  0x00, 0x00, 0x00, 0x00, 0x1e, 0x00, 0x00, 0x00, 0x3d, 0x03, 0x0e, 0x3b,
  0xd9, 0xeb, 0x12, 0x3b, 0x05, 0xb5, 0xea, 0x3a, 0xf6, 0x46, 0xf2, 0x3a,
  0x35, 0xa6, 0x21, 0x3b, 0x21, 0xbc, 0x12, 0x3b, 0xf4, 0xce, 0xe7, 0x3a,
  0xff, 0x0b, 0x29, 0x3b, 0xbd, 0xdd, 0x1b, 0x3b, 0x60, 0x11, 0x27, 0x3b,
  0x45, 0x5d, 0xd8, 0x3a, 0xa9, 0x29, 0x1b, 0x3b, 0x97, 0x91, 0xf5, 0x3a,
  0x78, 0x5b, 0x2d, 0x3b, 0xd2, 0xd2, 0x13, 0x3b, 0x7d, 0x18, 0x34, 0x3b,
  0xf8, 0xf1, 0x08, 0x3b, 0xea, 0x7b, 0x03, 0x3b, 0xcb, 0x04, 0xed, 0x3a,
  0x88, 0x35, 0x0c, 0x3b, 0xec, 0x64, 0x00, 0x3b, 0xb8, 0xa5, 0xdb, 0x3a,
  0x43, 0xd8, 0x06, 0x3b, 0x4c, 0x8a, 0x07, 0x3b, 0x06, 0x2f, 0x03, 0x3b,
  0x96, 0xe4, 0xf2, 0x3a, 0xe6, 0xd9, 0xeb, 0x3a, 0x5f, 0xda, 0x02, 0x3b,
  0xda, 0x5e, 0x05, 0x3b, 0x19, 0x6c, 0x17, 0x3b, 0x1e, 0x00, 0x00, 0x00,
  0x37, 0xe7, 0x8c, 0x3e, 0x01, 0xc6, 0x91, 0x3e, 0x9b, 0xdf, 0x68, 0x3e,
  0x68, 0x62, 0x70, 0x3e, 0xa9, 0x44, 0x6f, 0x3e, 0xa9, 0x96, 0x91, 0x3e,
  0xcd, 0xe8, 0x3d, 0x3e, 0xe7, 0xb9, 0xa7, 0x3e, 0x3f, 0x67, 0x85, 0x3e,
  0x3d, 0xc3, 0xa5, 0x3e, 0x07, 0x04, 0x51, 0x3e, 0xb9, 0xa2, 0x8a, 0x3e,
  0x6a, 0xfa, 0x5e, 0x3e, 0xc1, 0x00, 0xac, 0x3e, 0xfb, 0x10, 0x41, 0x3e,
  0xce, 0x63, 0xb1, 0x3e, 0x14, 0xe0, 0x87, 0x3e, 0xf2, 0x74, 0x82, 0x3e,
  0x1f, 0xa6, 0x5f, 0x3e, 0x62, 0x84, 0x64, 0x3e, 0xc2, 0xa7, 0x74, 0x3e,
  0xa3, 0xb2, 0x57, 0x3e, 0xfe, 0x8e, 0x68, 0x3e, 0xf5, 0x49, 0x80, 0x3e,
  0xa8, 0x28, 0x82, 0x3e, 0x04, 0x57, 0x6b, 0x3e, 0x32, 0x02, 0x6a, 0x3e,
  0x0b, 0x7b, 0x7e, 0x3e, 0x1f, 0xd5, 0x83, 0x3e, 0x41, 0x3d, 0x96, 0x3e,
  0x1e, 0x00, 0x00, 0x00, 0x9c, 0x22, 0x89, 0xbe, 0xe4, 0x3b, 0x7d, 0xbe,
  0x46, 0x07, 0x5d, 0xbe, 0x3d, 0x15, 0x6a, 0xbe, 0xe9, 0x62, 0xa0, 0xbe,
  0xc3, 0x62, 0x72, 0xbe, 0x56, 0xff, 0x65, 0xbe, 0xa7, 0x32, 0xa7, 0xbe,
  0x02, 0xa6, 0x9a, 0xbe, 0x92, 0x19, 0x75, 0xbe, 0x8a, 0xac, 0x56, 0xbe,
  0x56, 0xf3, 0x99, 0xbe, 0x74, 0xa6, 0x73, 0xbe, 0x3a, 0xf2, 0x88, 0xbe,
  0x2c, 0xab, 0x92, 0xbe, 0x4c, 0xb0, 0xb2, 0xbe, 0x7b, 0x6a, 0x6e, 0xbe,
  0x36, 0x37, 0x64, 0xbe, 0xc1, 0x2a, 0x6b, 0xbe, 0x1d, 0x1d, 0x8b, 0xbe,
  0x45, 0xc8, 0x7e, 0xbe, 0x6d, 0xee, 0x59, 0xbe, 0x92, 0xca, 0x85, 0xbe,
  0x37, 0x7b, 0x86, 0xbe, 0x09, 0x55, 0x50, 0xbe, 0xcd, 0xfe, 0x70, 0xbe,
  0x84, 0xb3, 0x4b, 0xbe, 0xaa, 0xd4, 0x81, 0xbe, 0x1c, 0x54, 0x84, 0xbe,
  0xcf, 0x04, 0x82, 0xbe, 0x19, 0x00, 0x00, 0x00, 0x73, 0x65, 0x71, 0x75,
  0x65, 0x6e, 0x74, 0x69, 0x61, 0x6c, 0x2f, 0x63, 0x6f, 0x6e, 0x76, 0x31,
  0x64, 0x2f, 0x63, 0x6f, 0x6e, 0x76, 0x31, 0x64, 0x31, 0x00, 0x00, 0x00,
  0x04, 0x00, 0x00, 0x00, 0x1e, 0x00, 0x00, 0x00, 0x01, 0x00, 0x00, 0x00,
  0x05, 0x00, 0x00, 0x00, 0x0d, 0x00, 0x00, 0x00, 0x72, 0xfc, 0xff, 0xff,
  0x00, 0x00, 0x00, 0x02, 0xb0, 0x01, 0x00, 0x00, 0x06, 0x00, 0x00, 0x00,
  0x88, 0x01, 0x00, 0x00, 0x04, 0x00, 0x00, 0x00, 0xc4, 0xfd, 0xff, 0xff,
  0x00, 0x01, 0x00, 0x00, 0x04, 0x00, 0x00, 0x00, 0x1e, 0x00, 0x00, 0x00,
  0x00, 0x00, 0x00, 0x00, 0x00, 0x00, 0x00, 0x00, 0x00, 0x00, 0x00, 0x00,
  0x00, 0x00, 0x00, 0x00, 0x00, 0x00, 0x00, 0x00, 0x00, 0x00, 0x00, 0x00,
  0x00, 0x00, 0x00, 0x00, 0x00, 0x00, 0x00, 0x00, 0x00, 0x00, 0x00, 0x00,
  0x00, 0x00, 0x00, 0x00, 0x00, 0x00, 0x00, 0x00, 0x00, 0x00, 0x00, 0x00,
  0x00, 0x00, 0x00, 0x00, 0x00, 0x00, 0x00, 0x00, 0x00, 0x00, 0x00, 0x00,
  0x00, 0x00, 0x00, 0x00, 0x00, 0x00, 0x00, 0x00, 0x00, 0x00, 0x00, 0x00,
  0x00, 0x00, 0x00, 0x00, 0x00, 0x00, 0x00, 0x00, 0x00, 0x00, 0x00, 0x00,
  0x00, 0x00, 0x00, 0x00, 0x00, 0x00, 0x00, 0x00, 0x00, 0x00, 0x00, 0x00,
  0x00, 0x00, 0x00, 0x00, 0x00, 0x00, 0x00, 0x00, 0x00, 0x00, 0x00, 0x00,
  0x00, 0x00, 0x00, 0x00, 0x00, 0x00, 0x00, 0x00, 0x00, 0x00, 0x00, 0x00,
  0x00, 0x00, 0x00, 0x00, 0x00, 0x00, 0x00, 0x00, 0x00, 0x00, 0x00, 0x00,
  0x00, 0x00, 0x00, 0x00, 0x00, 0x00, 0x00, 0x00, 0x00, 0x00, 0x00, 0x00,
  0x00, 0x00, 0x00, 0x00, 0x00, 0x00, 0x00, 0x00, 0x00, 0x00, 0x00, 0x00,
  0x00, 0x00, 0x00, 0x00, 0x00, 0x00, 0x00, 0x00, 0x00, 0x00, 0x00, 0x00,
  0x00, 0x00, 0x00, 0x00, 0x00, 0x00, 0x00, 0x00, 0x00, 0x00, 0x00, 0x00,
  0x00, 0x00, 0x00, 0x00, 0x00, 0x00, 0x00, 0x00, 0x00, 0x00, 0x00, 0x00,
  0x00, 0x00, 0x00, 0x00, 0x00, 0x00, 0x00, 0x00, 0x00, 0x00, 0x00, 0x00,
  0x00, 0x00, 0x00, 0x00, 0x00, 0x00, 0x00, 0x00, 0x00, 0x00, 0x00, 0x00,
  0x00, 0x00, 0x00, 0x00, 0x00, 0x00, 0x00, 0x00, 0x00, 0x00, 0x00, 0x00,
  0x00, 0x00, 0x00, 0x00, 0x00, 0x00, 0x00, 0x00, 0x00, 0x00, 0x00, 0x00,
  0x00, 0x00, 0x00, 0x00, 0x1e, 0x00, 0x00, 0x00, 0x35, 0x7d, 0xbd, 0x38,
  0xea, 0x09, 0xc4, 0x38, 0x10, 0x96, 0x9c, 0x38, 0xf9, 0xa2, 0xa1, 0x38,
  0xc0, 0xb0, 0xd7, 0x38, 0x3f, 0xca, 0xc3, 0x38, 0xfd, 0xa6, 0x9a, 0x38,
  0xa7, 0x8f, 0xe1, 0x38, 0x58, 0xf9, 0xcf, 0x38, 0xaa, 0xeb, 0xde, 0x38,
  0x44, 0x59, 0x90, 0x38, 0x10, 0x09, 0xcf, 0x38, 0x23, 0xd5, 0xa3, 0x38,
  0x08, 0x50, 0xe7, 0x38, 0x1b, 0x3e, 0xc5, 0x38, 0xbe, 0x4d, 0xf0, 0x38,
  0x3f, 0xba, 0xb6, 0x38, 0xce, 0x70, 0xaf, 0x38, 0xde, 0x20, 0x9e, 0x38,
  0x26, 0x15, 0xbb, 0x38, 0x60, 0x51, 0xab, 0x38, 0xfa, 0x89, 0x92, 0x38,
  0xc7, 0xec, 0xb3, 0x38, 0x55, 0xda, 0xb4, 0x38, 0x36, 0x0a, 0xaf, 0x38,
  0x22, 0x0c, 0xa2, 0x38, 0x75, 0x59, 0x9d, 0x38, 0x42, 0x99, 0xae, 0x38,
  0x32, 0xf5, 0xb1, 0x38, 0x60, 0x0b, 0xca, 0x38, 0x18, 0x00, 0x00, 0x00,
  0x73, 0x65, 0x71, 0x75, 0x65, 0x6e, 0x74, 0x69, 0x61, 0x6c, 0x2f, 0x63,
  0x6f, 0x6e, 0x76, 0x31, 0x64, 0x2f, 0x63, 0x6f, 0x6e, 0x76, 0x31, 0x64,
  0x00, 0x00, 0x00, 0x00, 0x01, 0x00, 0x00, 0x00, 0x1e, 0x00, 0x00, 0x00,
  0x32, 0xfe, 0xff, 0xff, 0x00, 0x00, 0x00, 0x09, 0x68, 0x00, 0x00, 0x00,
  0x05, 0x00, 0x00, 0x00, 0x40, 0x00, 0x00, 0x00, 0x04, 0x00, 0x00, 0x00,
  0x24, 0xfe, 0xff, 0xff, 0x2c, 0x00, 0x00, 0x00, 0x20, 0x00, 0x00, 0x00,
  0x14, 0x00, 0x00, 0x00, 0x04, 0x00, 0x00, 0x00, 0x01, 0x00, 0x00, 0x00,
  0x00, 0x00, 0x00, 0x00, 0x00, 0x00, 0x00, 0x00, 0x01, 0x00, 0x00, 0x00,
  0x2d, 0xf7, 0x22, 0x3b, 0x01, 0x00, 0x00, 0x00, 0xf6, 0xd7, 0x9c, 0x3e,
  0x01, 0x00, 0x00, 0x00, 0x3f, 0xb1, 0xa1, 0xbe, 0x18, 0x00, 0x00, 0x00,
  0x73, 0x65, 0x71, 0x75, 0x65, 0x6e, 0x74, 0x69, 0x61, 0x6c, 0x2f, 0x79,
  0x5f, 0x70, 0x72, 0x65, 0x64, 0x2f, 0x4d, 0x61, 0x74, 0x4d, 0x75, 0x6c,
  0x00, 0x00, 0x00, 0x00, 0x02, 0x00, 0x00, 0x00, 0x02, 0x00, 0x00, 0x00,
  0x2c, 0x01, 0x00, 0x00, 0xae, 0xfe, 0xff, 0xff, 0x00, 0x00, 0x00, 0x02,
  0x6c, 0x00, 0x00, 0x00, 0x04, 0x00, 0x00, 0x00, 0x34, 0x00, 0x00, 0x00,
  0x10, 0x00, 0x00, 0x00, 0x0c, 0x00, 0x0c, 0x00, 0x00, 0x00, 0x00, 0x00,
  0x04, 0x00, 0x08, 0x00, 0x0c, 0x00, 0x00, 0x00, 0x14, 0x00, 0x00, 0x00,
  0x04, 0x00, 0x00, 0x00, 0x01, 0x00, 0x00, 0x00, 0x00, 0x00, 0x00, 0x00,
  0x00, 0x00, 0x00, 0x00, 0x01, 0x00, 0x00, 0x00, 0xf6, 0xc1, 0xf9, 0x38,
  0x28, 0x00, 0x00, 0x00, 0x73, 0x65, 0x71, 0x75, 0x65, 0x6e, 0x74, 0x69,
  0x61, 0x6c, 0x2f, 0x79, 0x5f, 0x70, 0x72, 0x65, 0x64, 0x2f, 0x42, 0x69,
  0x61, 0x73, 0x41, 0x64, 0x64, 0x2f, 0x52, 0x65, 0x61, 0x64, 0x56, 0x61,
  0x72, 0x69, 0x61, 0x62, 0x6c, 0x65, 0x4f, 0x70, 0x00, 0x00, 0x00, 0x00,
  0x01, 0x00, 0x00, 0x00, 0x02, 0x00, 0x00, 0x00, 0x2a, 0xff, 0xff, 0xff,
  0x00, 0x00, 0x00, 0x02, 0x38, 0x00, 0x00, 0x00, 0x03, 0x00, 0x00, 0x00,
  0x10, 0x00, 0x00, 0x00, 0x08, 0x00, 0x00, 0x00, 0x04, 0x00, 0x04, 0x00,
  0x04, 0x00, 0x00, 0x00, 0x18, 0x00, 0x00, 0x00, 0x73, 0x65, 0x71, 0x75,
  0x65, 0x6e, 0x74, 0x69, 0x61, 0x6c, 0x2f, 0x66, 0x6c, 0x61, 0x74, 0x74,
  0x65, 0x6e, 0x2f, 0x43, 0x6f, 0x6e, 0x73, 0x74, 0x00, 0x00, 0x00, 0x00,
  0x01, 0x00, 0x00, 0x00, 0x02, 0x00, 0x00, 0x00, 0x72, 0xff, 0xff, 0xff,
  0x00, 0x00, 0x00, 0x09, 0x7c, 0x00, 0x00, 0x00, 0x02, 0x00, 0x00, 0x00,
  0x44, 0x00, 0x00, 0x00, 0x04, 0x00, 0x00, 0x00, 0x64, 0xff, 0xff, 0xff,
  0x30, 0x00, 0x00, 0x00, 0x24, 0x00, 0x00, 0x00, 0x18, 0x00, 0x00, 0x00,
  0x04, 0x00, 0x00, 0x00, 0x01, 0x00, 0x00, 0x00, 0x00, 0x00, 0x00, 0x00,
  0x00, 0x00, 0x00, 0x00, 0x00, 0x00, 0x00, 0x00, 0x01, 0x00, 0x00, 0x00,
  0xd7, 0x1b, 0x59, 0x3a, 0x01, 0x00, 0x00, 0x00, 0x40, 0xa6, 0x6e, 0x3d,
  0x01, 0x00, 0x00, 0x00, 0x9f, 0x69, 0xd7, 0xbd, 0x28, 0x00, 0x00, 0x00,
  0x73, 0x65, 0x71, 0x75, 0x65, 0x6e, 0x74, 0x69, 0x61, 0x6c, 0x2f, 0x63,
  0x6f, 0x6e, 0x76, 0x31, 0x64, 0x2f, 0x42, 0x69, 0x61, 0x73, 0x41, 0x64,
  0x64, 0x2f, 0x52, 0x65, 0x61, 0x64, 0x56, 0x61, 0x72, 0x69, 0x61, 0x62,
  0x6c, 0x65, 0x4f, 0x70, 0x00, 0x00, 0x00, 0x00, 0x01, 0x00, 0x00, 0x00,
  0x1e, 0x00, 0x00, 0x00, 0x00, 0x00, 0x0e, 0x00, 0x18, 0x00, 0x08, 0x00,
  0x07, 0x00, 0x0c, 0x00, 0x10, 0x00, 0x14, 0x00, 0x0e, 0x00, 0x00, 0x00,
  0x00, 0x00, 0x00, 0x09, 0x6c, 0x00, 0x00, 0x00, 0x01, 0x00, 0x00, 0x00,
  0x4c, 0x00, 0x00, 0x00, 0x10, 0x00, 0x00, 0x00, 0x0c, 0x00, 0x14, 0x00,
  0x04, 0x00, 0x08, 0x00, 0x0c, 0x00, 0x10, 0x00, 0x0c, 0x00, 0x00, 0x00,
  0x2c, 0x00, 0x00, 0x00, 0x20, 0x00, 0x00, 0x00, 0x14, 0x00, 0x00, 0x00,
  0x04, 0x00, 0x00, 0x00, 0x01, 0x00, 0x00, 0x00, 0xfb, 0xff, 0xff, 0xff,
  0xff, 0xff, 0xff, 0xff, 0x01, 0x00, 0x00, 0x00, 0xb7, 0xca, 0x2a, 0x3d,
  0x01, 0x00, 0x00, 0x00, 0x9f, 0xbc, 0xaf, 0x40, 0x01, 0x00, 0x00, 0x00,
  0x39, 0x83, 0xa4, 0xc0, 0x12, 0x00, 0x00, 0x00, 0x72, 0x65, 0x73, 0x68,
  0x61, 0x70, 0x65, 0x5f, 0x69, 0x6e, 0x70, 0x75, 0x74, 0x5f, 0x69, 0x6e,
  0x74, 0x38, 0x00, 0x00, 0x02, 0x00, 0x00, 0x00, 0x01, 0x00, 0x00, 0x00,
  0x7d, 0x02, 0x00, 0x00, 0x08, 0x00, 0x00, 0x00, 0x98, 0x00, 0x00, 0x00,
  0x80, 0x00, 0x00, 0x00, 0x68, 0x00, 0x00, 0x00, 0x4c, 0x00, 0x00, 0x00,
  0x3c, 0x00, 0x00, 0x00, 0x20, 0x00, 0x00, 0x00, 0x14, 0x00, 0x00, 0x00,
  0x04, 0x00, 0x00, 0x00, 0xde, 0xff, 0xff, 0xff, 0x00, 0x00, 0x00, 0x06,
  0x02, 0x00, 0x00, 0x00, 0x9a, 0xff, 0xff, 0xff, 0x00, 0x00, 0x00, 0x72,
  0xba, 0xff, 0xff, 0xff, 0x00, 0x00, 0x00, 0x19, 0x02, 0x00, 0x00, 0x00,
  0x00, 0x00, 0x0a, 0x00, 0x0c, 0x00, 0x07, 0x00, 0x00, 0x00, 0x08, 0x00,
  0x0a, 0x00, 0x00, 0x00, 0x00, 0x00, 0x00, 0x09, 0x04, 0x00, 0x00, 0x00,
  0xde, 0xff, 0xff, 0xff, 0x00, 0x00, 0x00, 0x11, 0x02, 0x00, 0x00, 0x00,
  0x00, 0x00, 0x0a, 0x00, 0x0a, 0x00, 0x00, 0x00, 0x00, 0x00, 0x04, 0x00,
  0x0a, 0x00, 0x00, 0x00, 0x02, 0x00, 0x00, 0x00, 0x00, 0x00, 0x0a, 0x00,
  0x0e, 0x00, 0x07, 0x00, 0x00, 0x00, 0x08, 0x00, 0x0a, 0x00, 0x00, 0x00,
  0x00, 0x00, 0x00, 0x03, 0x03, 0x00, 0x00, 0x00, 0x00, 0x00, 0x06, 0x00,
  0x08, 0x00, 0x07, 0x00, 0x06, 0x00, 0x00, 0x00, 0x00, 0x00, 0x00, 0x16
};
unsigned int trained_tflite_len = 7584;
